[PAD]
[UNK]
[START]
[END]
!
"
#
$
%
&
'
(
)
*
+
,
-
.
/
0
1
2
3
4
5
6
7
8
9
:
;
=
?
[
]
`
a
b
c
d
e
f
g
h
i
j
k
l
m
n
o
p
q
r
s
t
u
v
w
x
y
z
£
the
to
of
and
in
for
is
that
it
on
said
##s
he
was
be
with
has
as
have
are
at
by
but
will
not
from
they
his
we
mr
an
this
which
would
had
been
their
##ing
more
up
year
its
were
also
people
who
new
us
there
##ed
one
about
or
out
can
than
after
all
could
you
if
over
##d
last
time
when
first
two
now
government
world
##ly
some
uk
into
other
so
what
she
##e
them
just
no
years
against
only
make
best
film
##y
do
told
get
being
very
##er
such
made
game
like
many
back
should
three
000
before
because
music
##t
labour
next
##a
her
number
take
added
set
well
bbc
while
most
any
way
##r
##n
says
home
may
market
election
company
our
good
how
my
2004
much
off
still
england
him
going
down
work
since
then
those
firm
games
won
##es
##m
million
use
blair
show
second
play
think
##o
part
go
minister
top
technology
say
week
tv
party
under
between
high
want
win
five
##i
country
through
players
british
see
however
news
public
these
10
end
where
did
##on
used
brown
sales
four
months
mobile
group
half
old
both
six
even
##l
expected
growth
during
plans
already
come
chief
european
money
put
digital
club
britain
day
own
director
too
london
help
long
me
industry
big
net
deal
right
don
economy
former
record
need
month
2005
according
based
companies
system
service
##ers
##al
international
2003
users
team
move
report
third
including
phone
place
business
firms
wales
tax
europe
life
called
re
around
howard
services
economic
got
software
without
great
same
really
future
online
hit
another
side
real
spokesman
general
final
office
information
took
##bn
start
united
france
ireland
know
##an
bank
far
better
decision
despite
foreign
video
##k
every
give
##h
law
state
awards
campaign
prime
security
seen
figures
lot
saying
making
media
offer
open
radio
president
able
likely
national
computer
action
ve
become
executive
found
left
came
line
january
player
playing
run
times
anti
biggest
early
less
never
shares
##le
cup
data
research
given
using
whether
##g
away
prices
role
strong
award
earlier
star
season
taking
pay
rise
secretary
##en
december
leader
match
past
played
recent
##man
##p
court
hard
look
cut
following
nations
oil
chancellor
china
countries
does
increase
analysts
michael
police
lost
12
internet
quarter
control
later
man
support
##able
due
working
your
again
budget
important
try
cost
microsoft
##ling
house
few
legal
lord
films
local
financial
yet
case
different
dollar
return
##0
although
believe
further
rights
among
full
john
must
broadband
bill
change
ms
series
until
20
almost
david
free
interest
problem
spending
am
children
current
days
face
south
held
sunday
##th
##us
always
each
looking
tory
##in
little
ahead
currently
keep
thought
announced
went
##ting
share
30
find
##ation
issue
key
latest
major
american
access
behind
something
rate
released
##ion
11
having
##ic
##u
done
getting
low
power
sold
website
jobs
meeting
personal
point
winning
women
ago
chelsea
clear
include
phones
demand
ever
performance
political
rather
taken
bid
eu
might
war
young
list
men
##or
injury
price
programme
scotland
statement
chairman
doing
march
minutes
problems
rugby
tony
enough
mail
things
tuesday
25
chance
means
monday
plan
claims
here
sale
tories
coach
job
lead
members
once
trade
japan
actor
allow
fans
human
network
williams
across
buy
continue
february
saturday
close
investment
possible
result
commission
council
term
##ie
band
costs
manager
mps
18
issues
victory
##ity
break
league
level
mark
##c
song
success
warned
wednesday
head
asked
production
version
within
##ies
##ted
15
beat
career
project
weeks
goal
##rs
consumer
higher
needed
reports
available
centre
evidence
french
live
running
search
content
least
reported
coming
known
album
book
huge
total
100
cash
competition
points
customers
form
india
networks
previous
showed
title
agreed
aid
consumers
health
hold
jones
main
november
sir
trying
2001
act
city
friday
thing
vote
##it
ministers
wanted
web
##ive
##te
policy
several
short
though
wants
##ce
50
september
board
choice
##re
##ter
eight
forward
fourth
global
growing
iraq
others
saw
stock
apple
hope
italy
led
paid
rules
stop
sure
today
17
boss
charles
fact
instead
prize
recently
##nt
committee
difficult
failed
rates
television
##5
##b
##ble
##tion
##ton
comes
debt
late
lib
popular
profits
annual
education
school
site
small
trial
why
##ment
sport
received
single
themselves
##ise
devices
order
race
##se
arsenal
family
summer
##ness
##ty
liberal
mean
movie
october
pc
shows
sites
york
##ry
##st
gaming
launch
let
rose
yukos
##ia
event
involved
meet
nothing
sony
attacks
didn
needs
survey
##6
##ts
40
bush
development
ensure
feel
martin
parties
call
hours
independent
large
manchester
name
test
virus
##7
##ge
actress
box
bt
football
tour
union
##led
africa
cannot
christmas
claim
value
##x
2002
leading
stage
thursday
west
##9
##z
boost
gordon
together
##ised
16
24
ball
champion
denied
giant
groups
oscar
pre
street
comedy
comments
date
drive
euros
everything
idea
per
pressure
seven
##8
##is
14
round
stars
##4
##f
##ra
##v
age
association
calls
car
co
conference
dvd
entertainment
included
investors
launched
parliament
release
special
##ley
changes
create
exchange
hopes
makes
potential
sent
spam
##1
cards
dr
opening
russian
squad
##2
##ful
australian
liverpool
love
official
position
simply
13
black
either
extra
force
german
whole
germany
irish
newspaper
remain
singer
started
tsunami
worked
##ate
attack
australia
charge
concerns
immigration
markets
night
quite
roddick
appeal
bring
community
compared
fell
helped
largest
ll
numbers
period
stand
via
##est
anything
fall
festival
paul
senior
similar
spend
view
voters
weekend
accused
ban
bought
brought
card
provide
sell
##3
chart
confirmed
created
file
meanwhile
officials
poor
press
products
range
smith
speed
university
agency
became
believes
fraud
happy
history
june
lives
moment
named
olympic
particularly
private
social
talks
##ne
air
audience
average
bit
download
gave
offered
premiership
proposals
russia
shown
spent
2006
admitted
areas
conservative
course
critics
euro
everyone
fight
himself
results
rock
screen
speech
turn
zealand
authorities
fund
situation
standard
stay
systems
##ure
##w
commons
hand
non
opportunity
original
serious
step
target
taxes
training
turned
whose
winner
##ent
charges
claimed
double
easy
staff
terms
worth
airline
analyst
april
ceremony
defence
insisted
james
leave
lower
message
quality
response
watch
ways
area
bad
concerned
itself
majority
often
##ors
19
central
debate
decided
department
example
finance
matter
messages
mike
signed
society
songs
story
takes
wrong
##less
america
amount
body
gone
laws
madrid
schools
soon
speaking
tough
websites
##ally
##ant
2000
alan
businesses
followed
forced
impact
keen
outside
process
robinson
##nce
battle
challenge
champions
device
experience
fast
images
levels
longer
minute
post
profit
terror
winners
##el
##ine
becoming
care
confidence
drugs
google
looked
millions
talk
track
windows
##ch
captain
concern
cross
death
figure
generation
hollywood
hour
increased
kennedy
nearly
nominated
picture
reach
spain
threat
trading
##ar
##ist
##ve
andy
attempt
clarke
details
front
grand
previously
risk
rule
technologies
allowed
answer
focus
gadget
judge
moved
program
raise
selling
significant
workers
##ding
##ging
##ning
banks
build
cases
credit
deficit
dropped
fair
felt
opposition
pop
receive
remains
revealed
scheme
unit
##ous
account
actually
approach
couple
de
deutsche
expect
golden
indian
looks
nominations
portable
positive
shot
students
suggested
thousands
titles
white
widely
##ated
##et
##ian
##son
along
believed
contract
cuts
designed
fear
johnson
member
pair
speculation
wins
##ier
22
above
argued
civil
confident
domestic
energy
giving
glazer
near
newcastle
nine
particular
peer
reached
red
sector
send
trust
##ford
##id
artists
ask
a£1
bankruptcy
began
continued
definition
effort
management
park
planning
programmes
protection
ray
appear
debut
george
lions
measures
met
north
offering
organisation
person
ruled
states
takeover
towards
##ll
##ned
##ring
##ur
27
aviator
backed
computers
considered
crime
files
gold
host
japanese
massive
missed
present
ready
scottish
shadow
spanish
suggests
##at
##ey
##os
##tor
ability
agreement
anyone
asia
cabinet
chinese
conservatives
illegal
individual
kind
mobiles
poll
powers
robert
sound
viewers
##ance
##ds
academy
blunkett
capital
edinburgh
elections
income
july
minimum
mp
peter
reason
shareholders
##0m
##ating
accounts
field
highest
pcs
rest
rival
travel
##ious
##ro
60
adding
camera
dems
described
east
experts
gadgets
gives
inflation
machines
meant
mind
mini
movies
politicians
successful
written
##ising
##line
##me
##na
category
disaster
investigation
leicester
penalty
politics
rejected
supporters
talking
thomas
welsh
##ct
##de
##ded
##der
##ged
##ping
##sh
21
28
affected
aimed
announcement
august
certainly
comment
consider
criminal
criticised
doubt
drop
leaders
lords
pretty
probably
producer
richard
road
stake
theatre
waiting
xbox
##ial
##ke
5bn
asian
asylum
channel
english
fit
goes
homes
id
inquiry
language
operating
recovery
review
rising
row
someone
sort
starting
text
warning
##age
##cing
##um
advantage
building
closed
compete
daily
decide
defeat
drama
fi
hands
improve
relief
taylor
traffic
understand
wide
##ary
200
buying
changed
design
effect
events
families
feature
federal
fellow
fuel
ground
interested
living
loss
offers
progress
quickly
ruling
serve
showing
sign
tackle
wage
works
built
certain
davis
ex
greater
happen
happened
jamie
lack
limited
magazine
orders
parents
policies
produced
refused
seed
singles
stadium
1997
airlines
andrew
below
bigger
cameras
democrats
ended
exports
faces
follow
gamers
helping
hoping
kept
lose
machine
maker
musical
paris
pictures
question
sports
standards
suffered
tie
vice
##field
##ration
##ss
alongside
baby
character
developing
draw
earnings
existing
ferguson
friends
hits
ipod
justice
light
matches
models
output
predicted
programs
protect
raised
secure
spot
unemployment
wireless
##by
##ham
##ual
500
advice
avoid
blogs
chances
commercial
controversial
decisions
died
electronics
especially
fears
finding
harry
heart
insurance
king
organisations
poverty
published
questions
scored
separate
study
voted
##ck
##land
##ma
45
add
agree
beyond
clearly
dem
direct
facing
falling
increasing
issued
kelly
legislation
milburn
nadal
panel
planned
sharing
simon
source
straw
throughout
voice
wenger
##co
##king
##ns
##ta
benefit
corporate
favourite
funding
goals
index
introduced
kick
linked
oscars
overall
proposed
read
sky
starring
tim
woman
##ability
##ff
##isation
##ls
affairs
appeared
damage
doesn
green
hip
increasingly
los
onto
operators
piracy
promised
retail
store
strategy
striker
targets
tell
urged
uses
worldwide
##rd
##red
##ving
26
beginning
billion
born
capacity
cardiff
carry
chip
copies
culture
democrat
gmt
grow
guilty
indoor
mails
missing
moving
northern
operations
owned
places
population
producers
seconds
seek
transport
true
##as
##cy
##il
##va
23
campbell
common
duty
funds
gets
inside
joined
marketing
proved
responsibility
reuters
size
spokeswoman
sullivan
ukip
unveiled
van
##am
##ism
##ny
##ps
31
5m
activity
child
developed
efforts
losing
lse
model
morning
names
paying
picked
powerful
presented
prince
revenue
rivals
san
save
score
spyware
steve
straight
tournament
victims
vital
word
writing
##ard
##ler
70
alone
arrest
auction
clubs
code
division
driven
estimated
favour
finally
fox
gm
handsets
housing
isn
korea
morgan
multimedia
obviously
property
reduce
replace
self
smaller
suspended
tried
visitors
watching
wi
##ations
##ible
##ory
##rate
##ster
##ver
80
blog
books
broken
chris
console
cutting
develop
faced
fifth
finished
fly
gara
gerrard
imf
includes
pass
product
putting
simple
slow
strength
subject
tests
traditional
trouble
unlikely
visit
##ions
##ish
##ri
3bn
absolutely
accept
athens
basis
cable
cinema
difference
display
faster
gazprom
hop
italian
jackson
makers
middle
nintendo
perhaps
produce
seems
skills
studios
super
##ably
##ad
##ants
##ical
##ice
##sed
##tive
address
benefits
brian
broadcast
continuing
crucial
foxx
hoped
ian
lets
mci
monthly
mourinho
owen
proposal
responsible
robbie
seeking
sides
space
stephen
style
suspects
telecoms
twice
versions
voting
##ain
##ified
##ities
##sing
african
claiming
completely
dominated
economist
editor
electronic
environment
food
fully
handed
impressive
join
managed
miss
nation
natural
older
opportunities
referee
region
returned
storage
studio
suggest
terrorism
touch
words
##ments
##ms
##ner
##tt
##well
1999
angeles
cap
creative
critical
crowd
detailed
drawn
executives
failing
gas
hd
holding
image
matt
officer
operation
reform
science
sees
sense
stone
talent
telephone
treasury
turkey
##ay
##ction
##den
##ud
##uring
90
aware
a£2
behaviour
birmingham
cause
championship
championships
committed
courts
decade
downing
everton
forecast
forecasts
honour
interactive
interests
interview
kenteris
lawyer
paper
push
quit
remained
seeing
slam
slightly
technical
user
viruses
##dy
##ped
##way
1998
allowing
blue
bringing
carried
caused
communities
competitive
connection
deliver
deputy
features
female
follows
format
land
link
maybe
modern
overseas
p2p
parliamentary
pensions
plays
pledged
prepared
projects
records
relationship
room
royal
station
supply
sydney
thinking
tool
trend
tries
woodward
##bs
##ence
##ft
##ney
##ren
##ti
##ue
8bn
accepted
argentina
athletics
banking
bath
cell
continues
dead
else
extremely
fa
fees
flight
halo
happens
heard
highly
hunting
kilroy
mac
material
myself
nominees
nuclear
owners
prevent
queen
reading
scott
silk
specific
transfer
turning
views
##ca
##ening
##go
##nd
##ol
##tic
arms
assets
cars
century
charity
closer
considering
dallaglio
dance
driscoll
dvds
easier
expressed
fallen
greek
haven
hodgson
immediately
improving
initially
introduce
knew
mass
olympics
opinion
pace
passed
payments
questioned
reality
revenues
satellite
securities
spread
surprise
teams
trip
type
unless
water
worst
##io
##les
##out
##pt
4bn
actors
arrested
assembly
boerse
brother
celtic
charts
citizens
conditions
connections
creating
decline
downloaded
entry
evening
expectations
expects
fantastic
grew
iaaf
ibm
jose
opened
peace
reasons
rises
runs
sec
sri
surprised
vehicles
worried
wrote
##ering
##gan
##gation
##gs
##ings
##la
##ng
1bn
29
300
aged
amid
angels
appearance
attention
broke
cast
cheaper
choose
com
core
creditors
demands
desire
directors
ethnic
fine
glasgow
ideas
listen
manufacturing
memory
movement
muslim
partner
pushed
recorded
respect
safe
struggling
tech
tennis
trillion
variety
watchdog
##00
##da
##ins
##od
##pe
##sion
##wood
achieved
administration
arts
attorney
backing
basic
bond
camp
centres
chosen
compensation
conte
directed
documentary
elected
expensive
fighting
forsyth
fun
goods
graphics
greatest
handheld
henson
hunt
influence
innovation
jason
killed
lawsuit
leadership
leaving
murder
novel
pension
pick
plus
providing
radcliffe
ran
replacement
risen
supporting
tools
useful
wait
wasn
weak
##cted
##ile
##lin
##ow
alleged
approval
a£5
barcelona
beating
christian
davenport
drinking
drug
failure
father
gain
hundreds
increases
lawyers
learn
limit
managing
manifesto
marsh
monitor
murray
optimistic
performed
reduced
remember
scene
southampton
stability
steven
stronger
swank
targeted
treatment
william
winter
##hy
##im
##no
##res
##rey
1994
1m
34
blues
class
correspondent
crude
davies
deals
delighted
discuss
dismissed
easily
edwards
effects
employment
engine
eye
fed
hear
hotel
itunes
jack
joint
jump
larger
lines
mid
oliver
opera
originally
owns
performances
phil
playstation
prison
researchers
resources
savings
scale
sending
sets
thanou
unions
whatever
yen
yugansk
##berg
##down
##ger
##ill
##rt
35
4m
acts
appears
brand
brands
changing
clive
complete
completed
cope
currency
defended
direction
directly
domain
doping
eastwood
expansion
federer
frank
fresh
henry
hugely
industrial
intended
israel
jewish
kevin
knows
links
option
organisers
parts
perform
popularity
replaced
sentence
signing
thinks
tipped
tom
##5m
##bility
##ell
##its
##ks
##lo
##rated
##shire
##tte
2008
6bn
agent
apart
artist
audio
benitez
boys
brazil
california
collins
commissioner
cover
criticism
delta
disappointing
driving
effectively
employers
episode
eventually
fastest
filed
freedom
improved
indonesia
injuries
losses
minority
page
phillips
physical
prove
provided
psp
rap
regular
remaining
reporters
retirement
scorsese
speak
statistics
stores
usually
waste
wilkinson
worldcom
write
##ied
##ir
##men
##ved
##ze
2007
actions
adults
advertising
agencies
allegations
athletes
attend
backs
bell
bellamy
bmw
capable
closely
complex
consoles
contest
delivered
donations
earned
ebbers
edge
explained
famous
finals
flying
focused
gap
gdp
hewitt
holmes
industries
interesting
judges
keeping
linux
malicious
medical
musicians
professional
recognise
related
respond
rich
roger
ross
scrum
seats
seem
shared
sideways
sixth
soul
st
standing
stopped
thompson
violence
wall
welcomed
wimbledon
wine
younger
##2m
##bing
##hip
##ics
##ip
##ka
##ot
1980s
2bn
32
agassi
aim
alliance
autumn
blow
breaking
britons
calling
challenges
clean
colleagues
controlled
developers
earning
effective
exactly
excellent
exciting
factor
fiscal
hospital
institute
journalists
likes
lists
military
mp3
necessary
package
poster
profile
properly
raising
reaching
recognised
required
scandal
setting
shut
signs
solid
son
stations
sun
swiss
table
terrorist
thanks
vast
wider
##ap
##fied
##ki
##mer
##one
##ray
##ties
##ulate
48
abroad
advance
agenda
aims
art
asking
associated
authority
a£3
bafta
blacks
borders
bridge
channels
charged
closing
cole
communications
concert
contrast
controversy
corner
damages
danger
declared
deep
defender
determined
distribution
dollars
drake
earn
electoral
emerged
employees
encourage
enter
environmental
estimates
express
fiat
foot
hopefully
hurt
injured
jonathan
khodorkovsky
knee
la
lanka
negotiations
opposed
outstanding
ownership
passengers
patients
penalties
reforms
rosneft
screens
sequel
sharp
southern
split
staunton
telling
totally
unable
vera
visa
weather
wilson
wing
worse
##8m
##bly
##day
##des
##ite
##ked
##ncy
##rating
##ree
##right
1990s
250
8m
afford
alex
allows
application
attempts
ballet
block
borrowing
classic
cold
colour
competing
controls
councils
creation
definitely
desperate
disappointed
ds
duo
economists
foster
gathered
handle
helps
hill
individuals
ink
leigh
male
marathon
medal
mortgage
moya
nice
officers
ones
organised
owner
pointed
potentially
premium
pupils
pushing
reserve
reserves
robot
sometimes
task
upon
vodafone
wars
willing
##ered
##ga
##gged
##ians
##ition
##lined
##ming
##nces
##nts
##que
##ries
##side
##ugh
##ung
##ut
75
announce
applications
arm
awarded
base
begin
celebrity
ces
contact
dean
declined
dedicated
defend
desktop
distance
documents
door
established
feels
finances
finish
flanker
friend
granted
infrastructure
junk
label
lee
leeds
legitimate
lewis
listed
loan
lowest
materials
murphy
options
papers
pitch
posters
practice
praised
proper
rangers
regularly
remove
rover
rumours
sensitive
session
sources
strike
telegraph
terrorists
tight
tribunal
uefa
votes
wonderful
writers
##6m
##ak
##ened
##her
##ick
##ide
##ini
##istic
##nder
##ore
##sted
##tions
##tors
##ute
##ves
##wan
##zy
3g
7bn
7m
ac
acting
americans
attacked
badly
boosted
broadcasting
canada
candidates
comeback
crisis
democracy
dutch
enjoy
essential
euronext
extend
fixed
goldsmith
headed
immediate
indeed
infected
initiative
intelligence
invest
keeper
laptops
manufacturers
neither
normal
possibility
prescott
promise
quoted
republic
risks
robots
safety
semi
settlement
square
stories
streets
stressed
stuff
superb
ukraine
veteran
walk
wasps
welcome
wife
wouldn
writer
##air
##ever
##ina
##ld
##ort
##per
##ric
##shed
##vo
100m
42
alicia
ambitions
assistant
attacking
audiences
ballot
bay
beaten
becomes
blamed
campaigning
candidate
charlie
church
debts
disney
downloads
ease
engines
equal
everybody
fan
fee
foundation
funded
gained
grown
honours
insists
instance
items
jail
joining
lg
lifted
listing
mainstream
mcconnell
measure
moore
mother
moves
mtv
nomination
peel
placed
producing
professor
quick
retailers
roles
seat
shops
solution
souness
speeds
sporting
strategic
thank
train
turns
understanding
venture
western
##ai
##ald
##bury
##ched
##ens
##fer
##han
##hed
##ily
##rew
##ul
##ult
##vis
##ying
150
2m
60m
achieve
addition
alternative
balance
banned
bittorrent
branded
browser
cheap
clash
collection
commitment
construction
damaging
douglas
dublin
ensuring
fake
federation
ferdinand
forces
forms
founder
gains
gartner
generally
handset
hearing
highlighted
jet
keys
kong
letter
limits
mrs
multi
nokia
nor
operator
partly
payment
pirated
poorest
potter
promises
prompted
prosecutors
pulled
readers
receiving
recording
recover
regional
reputation
returns
rush
scoring
shane
shareholder
shoppers
simonetti
starts
steel
strongly
theme
threatened
ultimately
vision
weapons
westminster
whom
yahoo
##can
##don
##gen
##ient
##lation
##ris
##sive
##vy
2010
36
800
accounting
affect
alexander
approved
argument
atmosphere
automatically
a£4
blackburn
boeing
bomb
characters
combination
combined
commit
conducted
contribution
customer
detainees
discussions
divide
edward
enjoyed
factory
faith
fire
ford
friendly
graham
heavy
heineken
holiday
hosted
illegally
initial
investments
involvement
kicking
knowledge
laptop
lessons
letwin
merger
midfielder
milan
mixed
motion
nobody
passion
plant
pleaded
pocket
posted
premier
prop
provides
reflects
reportedly
represent
require
resolution
returning
rupees
sophisticated
spammers
spring
succeed
tags
tend
testing
threats
topped
tottenham
usual
values
various
vehicle
villa
virtual
vulnerable
wanting
wonder
##4m
##ace
##ah
##als
##ans
##bc
##gate
##ges
##ify
##ink
##ists
##ivity
##lon
##orn
##ova
##rry
##tal
##ues
##wick
39
400
acknowledged
aiming
analysis
apologise
apology
author
beijing
berlin
betting
bnp
boom
boston
boxes
boy
butler
carlos
complaints
confidential
contracts
copyright
da
dicaprio
doubles
ebay
economics
embargo
entire
entitled
equipment
eyes
falls
featuring
forget
gary
gloucester
guantanamo
guy
holds
indicated
intel
jeeves
jumped
largely
latin
leads
loans
matters
matthew
mcdonald
moments
monitoring
mouse
pack
pilot
platform
purchase
relatively
ronaldo
secured
servers
sex
smart
status
stepped
steps
stuart
suffering
suit
summit
supplies
switch
tait
tells
theft
ticket
tickets
triple
ulster
ultimate
wearing
whilst
worries
worry
yards
##30
##7m
##ats
##back
##cs
##fy
##ire
##ky
##lay
##med
##mi
##nes
##ons
##ron
##sts
##tch
##ther
##ulation
##ware
000m
120
3d
600
aircraft
airport
angry
anywhere
argues
aside
bodies
breaks
broadcasters
chapter
chicago
congress
crown
dark
delayed
downloading
drink
dubbed
elements
elsewhere
elvis
emergency
equity
false
favourites
flat
gates
genuine
governments
gross
guys
impressed
incident
islamic
kate
las
learning
leg
lived
lots
magic
mayor
mistake
motivated
munster
nets
none
oaten
obvious
ordinary
ourselves
pages
performing
personally
preparing
pro
promote
proud
proving
quarters
rapid
recall
reflect
replay
scenes
schemes
scrutiny
sensible
seventh
shape
signals
silver
singapore
slowdown
stocks
struck
structure
swansea
ten
upbeat
upgrade
watched
##ach
##ack
##ast
##ators
##bert
##cle
##do
##dom
##he
##head
##ig
##ix
##nation
##osing
##sa
##sen
##table
##ture
##ward
44
55
abuse
acquisition
adult
adventure
albums
ambition
aol
appropriate
arrived
aston
athlete
attract
auto
begins
bids
billions
brazilian
categories
circumstances
clients
commerce
conflict
connected
contains
cool
copy
criminals
cuba
deeply
defending
disease
engineering
feeling
francisco
g7
genre
globe
goalkeeper
grant
heavily
henman
hi
hilary
hospitals
households
hughes
hybrid
imelda
incredible
internal
island
journalist
juninho
labs
legend
letting
lock
miller
monetary
motorola
newspapers
nick
norwich
operate
photos
piece
planes
pleased
pledge
portsmouth
predicts
purpose
racist
reducing
rfid
rural
seemed
seriously
settle
shopping
spider
spokesperson
stages
statements
studies
surge
therefore
tiny
tracks
twickenham
un
universal
vegas
window
wish
##1m
##ancy
##ative
##ax
##bia
##cies
##ery
##ically
##ination
##ional
##ison
##ium
##kins
##lies
##light
##lled
##ome
##our
##pted
##ral
##tory
##uted
##ven
33
53
62
800m
achievement
amazon
apply
argue
a£10
bar
battery
beer
behalf
bob
bowl
brain
breakthrough
bruce
buyers
carefully
challenging
cities
citigroup
cleared
connor
corporation
couldn
cultural
dawson
detained
dial
discipline
dramatic
dubai
earth
elderly
encouraging
entirely
epic
ericsson
extended
farrell
fewer
flights
gavin
harder
harm
heads
hero
hidden
hong
hot
identity
ill
inspired
introduction
johnny
jonny
ken
kicked
kim
labels
lending
lycos
mcilroy
multiple
muslims
mutual
nature
nhs
nicolas
nielsen
officially
operates
otherwise
palestinian
perfectly
phishing
possibly
predict
print
properties
providers
qantas
rapper
rarely
ratings
realise
rely
reveal
rings
ruddock
screenplay
select
shake
sheffield
sister
slower
sounds
specialist
struggled
student
subscription
substantial
sued
suffer
suggesting
tackling
teenage
telecom
texas
tribute
understood
wal
worm
yes
##af
##aries
##bo
##cent
##ctive
##ders
##ee
##els
##ess
##fully
##gh
##hing
##hood
##ike
##ingly
##km
##late
##lated
##more
##oon
##over
##ress
##tation
##ub
##uing
##ula
##ump
##urt
##uting
1993
47
65
85
aids
amazing
anfield
avoided
ben
bills
brussels
callaghan
capt
caught
clark
climate
clint
college
competitors
computing
consumption
contained
corp
crash
destruction
dj
eastern
efficient
facilities
familiar
fbi
feet
fitness
formed
functions
gambling
grammy
ham
happening
houston
importance
impossible
investigating
iran
jay
joins
jp
jupiter
knocked
korean
lisbon
livingstone
maps
mart
medium
membership
minorities
normally
ofcom
olds
opponents
ordered
parent
parker
patent
pensioners
percentage
photo
priority
prizes
publish
recognition
refuse
register
remarks
removed
revolution
rome
scheduled
screensaver
section
selection
shop
somewhere
sparked
stevens
subscribers
surgery
suspension
sweden
tested
thirds
thrown
tindall
town
treated
types
upset
utd
victim
wake
##50
##ao
##ars
##ches
##coming
##ets
##gb
##hin
##horpe
##ibility
##ker
##ni
##oid
##ole
##pped
##py
##ria
##tes
##time
##uck
##ull
##val
43
49
52
6m
accident
accurate
activities
additional
addresses
adds
adopted
advanced
afterwards
airways
allegedly
allies
ankle
anniversary
aspects
attended
attracted
balco
barrel
bench
binge
blackpool
blame
blogging
bolton
broadcasts
cautious
cinemas
clothing
complaint
concept
connell
cook
copper
counter
csi
deficits
delays
dent
depth
detail
detention
dinner
distribute
document
domains
doors
doubled
ending
entered
equally
exeem
expecting
experienced
fashion
fined
formal
formats
franz
fulham
generated
grounds
handling
historical
imposed
independence
innocent
insist
iraqi
laporte
liberty
libraries
lies
lift
martyn
mary
melbourne
millan
millennium
ministry
mutu
negative
nissan
offices
ongoing
opens
optimism
outcome
pact
pakistan
parmalat
parry
perfect
presence
presidential
principle
privacy
processing
puts
ranging
registered
repeatedly
replacing
reporting
representatives
resigned
robben
rooney
route
runners
secret
serena
served
similarly
solutions
southcorp
stewart
stolen
subs
supported
suspected
thailand
timing
tourism
trials
troubled
truth
u2
units
ups
verizon
welfare
workforce
worrying
##all
##ane
##bilities
##cture
##em
##ending
##ere
##fa
##ification
##ik
##ined
##lan
##lf
##mit
##mont
##night
##old
##ously
##race
##rail
##rass
##ston
##tle
##unt
##vision
##wall
##work
##zz
200m
37
3m
9m
absence
accessible
adverts
affair
afternoon
airbus
al
alcohol
audit
begun
belief
bening
blocking
boosting
cents
chain
client
colin
commissioned
controlling
cueto
damaged
dangerous
daughter
decades
disc
doherty
doom
ea
entering
equivalent
era
estimate
expert
export
falconer
featured
fierce
fired
firefox
forest
forgotten
fortune
founded
g8
gallas
gervais
glad
governing
greenspan
guard
heading
headlines
highlight
hitting
impression
improvement
informed
initiatives
integrity
jean
jim
joe
keane
keeps
launching
legally
lindsay
mainly
maintained
malcolm
managers
meetings
msn
napster
neil
offence
ons
oxford
palace
peston
plane
plenty
positions
pound
presley
protected
quotas
qwest
rally
reasonable
regulators
relations
remote
represented
represents
request
rob
roberts
robin
saving
screened
searching
shell
shocked
signal
sisters
skipper
slipped
snow
sought
spaniard
spoken
spurs
stayed
stored
string
suspicion
swap
taxpayers
triumph
unfair
warnings
wild
winger
##0bn
##3m
##aged
##ann
##asia
##ath
##con
##een
##ency
##ha
##hi
##hs
##ira
##ises
##j
##lock
##lt
##mate
##mond
##ose
##patible
##ple
##rary
##rates
##ride
##rie
##ru
##sume
##tible
##tter
##ua
##ually
##ulous
##ura
##vic
1995
41
57
64
700
affordable
aggressive
alert
amounts
andre
andreas
anger
appearances
argentine
arrival
arsene
attachment
aviation
a£100
background
bail
bands
brit
burnley
byrne
casinos
cd
celebrities
charlton
chartered
chase
chat
click
coaches
collect
concluded
consecutive
consortium
constantly
constituency
conversion
corry
craig
cyber
defeated
demanded
denies
deny
departments
deserved
developments
dispute
doctors
doubts
duff
ec
emerging
enable
encouraged
enhancing
enterprise
extraordinary
fought
fuller
girl
gun
hardware
harriers
holder
hosts
hp
idol
impose
innovative
intention
intervention
investigate
investor
invited
involving
jowell
joy
judgement
jury
kids
knock
leinster
liam
lie
lifestyle
loose
maintain
manuel
meaning
messaging
mock
moody
motorcycle
mubanga
museum
netherlands
nigel
opec
osbourne
peak
philip
pledges
productions
promoting
provider
pull
rating
recommended
reconstruction
redknapp
regions
regulator
replied
representing
respectively
restructuring
retailer
revised
rift
roma
seeks
shock
sitting
smoking
somebody
spin
spirit
subsidiary
successfully
succession
teachers
televised
transactions
travelling
warner
wealth
withdraw
wolves
wright
##20
##ase
##atic
##ational
##bles
##cate
##cher
##chi
##cts
##culated
##eering
##fall
##here
##hile
##ight
##ipped
##ited
##len
##maker
##mo
##mp
##my
##nic
##nie
##om
##ony
##oran
##port
##rive
##rm
##ros
##row
##ses
##tel
##turn
##uise
##ulated
##up
##urs
##yer
1985
38
51
74
9bn
ambitious
anybody
appeals
appointed
appointment
aragones
arnold
ashley
assault
assess
assessment
attractive
baa
barrels
barry
beautiful
briton
brothers
burden
campaigners
cancelled
carrier
carrying
catholic
check
chose
coalition
collapse
comic
complained
consultation
convention
dealt
dec
decent
delivering
depp
deserve
directing
disabled
disasters
discussed
dream
eddie
egypt
eighth
engage
enormous
europeans
exhibition
explain
extending
extent
factors
fail
fairly
festive
fiction
fictional
filing
fill
forthcoming
forum
fundamental
gig
globally
glory
guarantee
guidance
halt
heat
hemisphere
hickie
hole
hotspots
hunts
husband
ignored
improvements
installed
interact
interviews
itv1
johansson
keegan
lansdowne
lucrative
luxury
married
mate
maternity
maximum
memories
mental
metal
midfield
motor
nervous
note
offences
offensive
orange
outlook
persuade
pounds
presenter
pressures
processor
proof
prosecution
prospects
racing
rafael
rbs
reaction
rebate
rebuild
recession
recorder
regime
regulations
releases
religious
resignation
ring
sacked
salary
samsung
saved
scots
selected
sevens
sharply
shift
shooting
shortlist
shortly
slide
soap
spell
spitzer
starred
stuck
successive
suddenly
surrounding
sustained
tactics
talented
tate
telewest
tokyo
trick
umaga
underground
unfortunately
unveil
upper
usher
veritas
victor
virgin
visiting
wages
warn
wave
widespread
winslet
wong
worlds
yuganskneftegas
##9m
##ature
##board
##boy
##break
##bridge
##cation
##che
##ching
##eer
##eville
##ez
##front
##gue
##house
##icate
##ifying
##ita
##kes
##ko
##lands
##lating
##lations
##lessly
##lew
##life
##makers
##max
##mission
##nia
##olk
##oo
##outs
##ovic
##owed
##rab
##ran
##rave
##rn
##rts
##rupt
##set
##tain
##ters
##uake
##ued
##uire
##uis
##ulting
##ural
##ured
##ures
##ution
##wing
1987
46
54
56
abused
adaptation
adviser
airports
anderson
announcing
apparent
aren
arguments
article
asset
awesome
baikal
barkley
bergamasco
bets
blind
bloglines
blu
booked
booming
bot
bottom
brando
breach
bristol
brits
bus
cancel
carpet
carroll
chair
chepkemei
comfortable
connect
consistently
consolidation
contenders
conventional
convicted
convinced
cooper
corruption
covered
cycle
czech
dan
daniel
determination
diary
die
directive
disappointment
diversity
eating
economies
employee
entries
episodes
escape
evans
eve
explains
fines
floor
frankfurt
freeview
freeze
gareth
gather
gb
gear
gene
habits
hackers
hague
hardly
hart
headquarters
historic
hurdles
ice
identify
ignore
institutions
ira
israeli
jeremy
keyboard
keynote
languages
leap
leary
lifts
malaysia
margaret
marion
master
mcfadden
mda
metres
mistakes
mms
morrison
motors
nitoglia
notice
orquera
ospreys
overcome
patterns
petrol
pm
policing
polls
practices
praise
prefer
prior
profitable
promising
prospect
protest
rebuilding
recalled
reduction
renewed
rescue
resolved
reviews
revival
saints
scams
schroeder
scientists
screening
servants
settled
sharks
spoke
staged
stance
stern
stick
stood
strikes
stringer
struggle
subsidies
sufficient
suicide
sunderland
supplier
supreme
surface
tb
teacher
thriller
throw
tobacco
topping
tourist
traders
trio
typical
update
venezuela
vickery
viewing
vinci
voter
washington
wasted
weaker
wedding
worker
youth
yushchenko
##abilities
##alie
##ama
##ano
##bby
##bed
##cc
##ception
##cious
##dam
##eers
##ert
##iate
##ica
##ift
##iously
##iring
##iro
##ith
##ived
##key
##li
##lish
##lly
##load
##mic
##net
##ntly
##ographic
##oland
##po
##ption
##quate
##rant
##rian
##ributor
##rix
##ror
##secs
##star
##tering
##to
##try
##uate
##ulating
##umb
##unate
##und
##urry
##urse
##use
##using
##uts
##ux
##vince
##wards
##yn
##zed
1996
20th
400m
absolute
accusing
adam
adapted
afghanistan
alive
almunia
appearing
approached
arguing
articles
attempted
attempting
awareness
a£1bn
bandwidth
battled
beattie
beckham
bennett
bernard
bet
biopic
bjorn
blogger
bloggers
brings
buildings
careful
caribbean
carling
carpenter
catch
cent
chips
citizenship
clock
coal
collapsed
combat
comedian
compiled
compromise
conceded
conspiracy
constitutional
context
creates
dam
deadline
deliberately
delivery
democratic
discovered
displays
dominate
drinks
drives
drunk
eastenders
easterby
edu
el
elite
ellis
encounter
enhance
enjoying
enthusiasm
essex
eurozone
exist
expand
fault
flexibility
florida
forensic
fsa
gaining
giants
god
hall
hantuchova
hdtv
header
herself
hiv
horror
imagine
interface
itv
jacques
jamieson
jerry
jimmy
kerry
kill
killing
knight
laboratory
lane
lay
leaves
lewsey
liberties
lucky
manner
maria
mcletchie
merrill
middlesbrough
mikhail
mood
nazi
odds
opinions
opponent
partners
partnership
passport
patents
pew
politically
pompey
principles
probe
publication
qc
quarterly
realised
recorders
recovered
regulation
reliance
remarkable
restrictions
retain
retire
retired
roll
rubbish
runner
satisfied
schedule
scissor
sea
secondary
sectors
sentences
shoot
significantly
simpson
singing
slight
slowly
sorry
sorts
stamp
sue
sustainable
takings
telecommunications
temporary
terry
threatening
tommy
tonnes
tourists
trafford
tragedy
tremendous
troops
trophy
tycoon
typically
unique
universities
unlike
unusual
usa
visited
visual
volley
volume
vowed
wholesale
wood
zone
##ab
##ac
##ang
##atch
##au
##bi
##ctured
##dan
##ea
##ented
##eo
##etic
##fine
##form
##gas
##grave
##ign
##iment
##inated
##int
##iss
##iting
##ives
##junction
##kin
##lie
##lle
##nel
##nin
##nsive
##ok
##ored
##page
##passed
##rady
##ream
##rick
##rily
##rin
##rit
##rived
##room
##rupted
##sis
##taining
##tensive
##tives
##ug
##umbled
##uming
##unk
##ust
##vi
##vin
##wn
##ya
##za
102
1500m
1984
21st
76
99
ad
anthony
anticipated
apparently
arcy
a£50
a£7
balls
beats
bez
blanchett
blockbuster
border
bosses
bp
bpi
brentford
brilliant
broadcaster
calculations
campaigns
capability
carmaker
carriers
casino
cbi
cebit
cells
center
challenged
charging
clearance
closure
coast
collected
commodore
communication
consistent
consultant
contacted
contributions
correct
costly
costume
count
covering
creator
credits
custody
dealing
defined
derby
deserves
diaries
differences
disciplinary
draft
drafted
dragons
dressing
drogba
efficiency
element
email
employs
enron
eric
errors
establish
evil
excess
exchanges
existence
expression
fame
fantasy
ferrero
fockers
footage
fortunes
francis
function
genuinely
gibson
guardian
guitarist
hayes
headline
heathrow
hide
highs
holdings
horgan
household
icann
implications
influential
insurers
intense
intentions
interviewed
jobless
jon
joss
journey
landing
landmark
landscape
leonardo
lleyton
lloyd
lyrics
maintaining
margin
marigny
marked
marks
melzer
menatep
mentioned
merged
mexico
midlands
mining
modest
momentum
morientes
munich
nasdaq
nationals
native
nbc
neck
netcraft
neverland
noon
northampton
numerous
observers
offset
oppose
overwhelming
owed
patches
paula
percent
phenomenon
pirates
plastic
predicting
predictions
preliminary
prepare
prof
proportion
queries
questioning
racial
rare
raw
reds
reeves
regulatory
reid
reluctant
remake
requests
requires
responded
reward
richards
rid
river
rolling
sam
seekers
shaun
shouldn
slot
slowing
soaring
soldiers
solve
speaker
specifically
sprinter
stade
stands
steal
stopping
stress
studying
submit
supposed
surprising
switched
talked
tape
tel
toyota
truly
tvs
uncertainty
venue
warm
waves
weight
wto
yard
youngsters
##12
##acy
##asure
##athy
##ator
##bar
##be
##bon
##book
##cated
##ced
##cks
##culate
##culating
##dle
##ec
##ents
##force
##gar
##gard
##gic
##gie
##gle
##hen
##ien
##ighed
##ima
##ines
##ires
##irs
##iser
##ished
##lement
##levant
##lia
##lity
##lling
##long
##lop
##lying
##mates
##named
##nch
##nesses
##nse
##nted
##oc
##ogue
##oke
##olf
##ord
##ordan
##ounced
##ount
##pa
##paid
##piece
##pm
##point
##pp
##pping
##pression
##q
##rack
##rade
##rants
##rely
##ruit
##rus
##si
##sky
##sm
##ten
##tered
##tti
##ums
##un
##urf
##ursor
##urst
##uss
##vasive
##verse
##ville
##vive
##we
##writer
05
1983
1992
19th
233
66
95
abandoned
achievements
adjusted
ads
advert
amongst
animated
antonio
apologised
appealed
artificial
austria
automatic
avoiding
a£6
barred
bidding
billboard
bonus
bortolami
borussia
breaches
brewer
brighton
cannes
cate
chamber
clothes
combine
commitments
condition
conduct
confirm
converted
countryside
crystal
dame
deaths
denial
departure
destroyed
dip
discussion
distributing
divided
donofrio
drawing
drew
drm
emphasis
empire
evolution
excited
exeter
experiences
explosion
external
extras
farmers
fields
fifa
financing
finds
firmly
focusing
formally
forwards
frost
gateshead
guidelines
hanks
hasn
hogg
holland
honoured
hotels
housewives
ideal
imports
inappropriate
inbev
incomes
indication
insurer
intend
investing
involve
iranian
iron
jailed
jol
journals
judged
kasabian
kenya
lampard
landed
lawrence
le
legacy
length
listeners
loved
lucas
lying
magnier
marry
mathew
mcmanus
mention
metropolitan
minor
mission
mitsubishi
moral
morris
mostly
mpc
nanny
newly
noise
nominee
noted
ocean
outrage
pakistani
passage
passenger
patrick
pause
peers
perspective
plot
poised
possession
presidency
primary
principal
prints
prisoner
prisoners
processors
prototype
publicity
races
rankings
reacted
referendum
reflected
reflecting
regarded
regarding
reject
replacements
representative
requirements
resort
richest
rio
robson
robust
samoa
scam
scrapped
sentenced
serving
sessions
shanklin
shaw
sluggish
spark
sprinters
stanley
stated
strengthen
subsequent
suggestion
suggestions
surely
suspect
ties
titled
tomlinson
toshiba
trends
tune
unacceptable
unhappy
unity
upward
utility
village
voiced
wayne
weekly
wells
wmc
xp
yuan
##70
##80
##aas
##act
##aka
##aking
##ale
##ances
##arily
##asing
##aul
##away
##ban
##bor
##cal
##ceed
##cles
##ctor
##eing
##ek
##ew
##ews
##fan
##fe
##finite
##friend
##ght
##gian
##gical
##going
##guard
##hall
##hard
##hn
##hore
##iled
##iments
##ino
##ipe
##isa
##itarian
##iteracy
##iture
##itz
##ius
##ize
##ized
##ken
##lair
##lake
##lawed
##lick
##lton
##lving
##mark
##matic
##mb
##mbian
##mma
##motion
##mpt
##nal
##nnan
##ography
##oks
##olve
##oms
##oses
##oth
##ough
##oy
##place
##plied
##ply
##pose
##posure
##print
##racing
##rain
##rap
##raphers
##raphy
##rayed
##rc
##reat
##ributors
##ridge
##rim
##riving
##rous
##secuted
##ship
##sions
##sters
##taken
##tis
##uation
##ube
##ught
##uiet
##urn
##ustin
##uter
##uters
##uw
##vated
##vine
##vise
##vist
##wa
##wer
##words
10th
1970s
2009
72
acclaimed
active
activists
advocates
afraid
agreements
agrees
agriculture
ahold
alfa
angola
applied
arbitration
army
arnesen
asimo
atlantic
atp
aviv
axa
a£35bn
bans
battles
bear
benchmark
billed
blocked
bluetooth
borrow
boyd
broad
brokers
cairn
canadian
carnival
castle
casual
causes
chambers
charities
chasing
checks
choices
christ
circuit
citizen
clay
clijsters
coaching
colleague
columbia
compliance
constant
constitution
contain
convert
convincing
coverage
crack
cult
dave
dempsey
den
desailly
desperately
difficulties
disclosure
district
dogs
dominant
dortmund
drag
dropping
editing
electricity
emerge
equality
eternal
ethiopia
exact
examining
exercise
exploit
exploited
fails
feared
findings
fish
fishing
fits
fogg
frederick
frustrated
frustrating
gay
ghosn
gill
girls
globes
godzilla
grace
gradually
guild
gunners
hailey
halfway
hamstring
hansard
harris
hitler
hoddle
honda
horse
humphreys
hutt
icon
ii
incidents
incredibly
influenced
instructions
ipods
iptv
ivan
jamelia
julia
junior
jurisdiction
khan
kostas
laid
latinohiphopradio
launches
lawsuits
legs
lehmann
lifetime
liked
listening
lopez
lovers
lure
lynch
manage
marr
martinez
matched
mates
megapixel
mercedes
mirza
musician
myskina
narrow
neeson
nestle
nevertheless
newcomer
ninth
occasion
occasions
odd
owning
ozzy
paramount
participation
passing
paterson
patient
payne
periods
philippe
picking
poorer
ppi
premises
prestigious
processes
prominent
prosecutions
publicly
purchased
pursue
putin
qualifications
qualified
racism
rain
ranked
ranking
refugees
relay
remark
reporter
representation
responding
responses
restore
rewarded
rick
robertson
rogue
roy
ryanair
santa
santini
sarah
saudi
seeded
separately
setback
severe
sharon
shortages
simpsons
sit
sloncek
slowed
snapped
somehow
stem
straightforward
strengthened
sunshine
suppliers
suprnova
surplus
surveillance
surveys
swapping
sweet
swiftly
tale
tap
tapes
technically
techniques
tens
territory
thai
thunderbirds
tigers
trackers
traditionally
trevor
turkish
turnover
tyranny
ufj
unknown
updated
urban
usage
valued
virginia
voluntary
walked
warcraft
wear
webster
withdrawal
withdrawn
woolf
zero
##0s
##11
##15
##25
##acked
##afa
##ag
##ail
##ami
##anda
##arked
##arm
##ash
##ba
##bain
##bencher
##bit
##books
##cast
##cell
##cessor
##ci
##cluding
##clusive
##com
##die
##ducing
##eas
##ena
##erate
##erial
##essa
##essed
##esy
##fection
##fold
##forced
##formed
##gain
##gc
##gg
##gi
##gling
##gm
##ground
##hand
##hill
##hipped
##ho
##hold
##holders
##ication
##icism
##icle
##ict
##idis
##igs
##ilton
##ime
##inal
##inate
##ivo
##jan
##lade
##lam
##lar
##lare
##laude
##lause
##link
##lls
##loy
##mann
##market
##mine
##missions
##nan
##nis
##oker
##oley
##ology
##oney
##ora
##orous
##orship
##osity
##ound
##oured
##outh
##ov
##rad
##rati
##rations
##rators
##reed
##rek
##rell
##rging
##ril
##rust
##rysler
##sation
##scribe
##sely
##ser
##sight
##stitution
##sure
##take
##tant
##tled
##uest
##uj
##ular
##ulator
##unch
##urity
##urton
##ury
##used
##usion
##utch
##vable
##van
##vana
##vate
##verly
##visory
##voy
##wful
##win
110
140
1979
1989
500m
67
71
77
777
84
accepting
achieving
actual
admits
advised
allied
anne
artistic
aspect
assist
assistance
attendance
attitude
attributed
a£8
baghdad
barbara
barely
barrier
bars
basically
bates
battling
beach
belmarsh
billionaire
billy
birthday
blood
boards
boxing
breached
breakfast
browse
bulk
cabir
calm
cambridge
captaincy
catalogue
causing
cbs
cea
centred
ceremonies
chidambaram
christopher
cicero
cited
claxton
clearing
climbed
coloured
competitions
concentrating
concentration
convergence
county
crimes
criteria
critic
cry
csos
currencies
dancing
deccan
deciding
degree
demonstrate
depend
designer
destroy
detain
dies
discrimination
distributed
diverse
djs
dominance
donate
drivers
dtt
duties
echoed
edged
electorate
eminem
emotional
employed
employer
empty
enabled
ends
endured
engagement
estate
etc
evasion
everquest
expanded
expenses
exploration
explorer
exposed
extreme
failures
fate
fiji
filled
financially
finest
fix
fletcher
flow
formerly
fortnight
freely
gameplay
gardener
ge
geoff
governor
gray
griffin
grows
guide
handful
hang
hansen
healthcare
hell
hey
holders
honorary
hopeful
hundred
iconic
identified
ie
immigrants
incentives
insider
insisting
integral
intelligent
intends
internationally
interval
inventions
involves
irresponsible
joel
joke
josh
jude
judicial
kanye
keanu
keith
kent
kezman
learned
library
licence
linking
llewellyn
lo
locked
loyalty
luscombe
mandatory
marc
margins
marriage
marvel
medallist
medals
mentally
mep
meps
mido
migrants
migration
mix
morquendi
murrayfield
myers
nair
necessarily
nerve
nicholas
nistelrooy
nottingham
ntl
olivier
operated
orchestra
overturned
pacific
pence
peoplesoft
performers
permanent
perry
persistent
persuaded
phase
pieces
planet
pool
posts
powys
preventing
prix
promotional
promotions
prompting
protecting
protests
pub
punishment
pvr
qatar
qualify
rank
ranks
rapidly
reception
reddy
reference
reggae
rent
repeated
residents
respected
revenge
rivalry
romantic
roughly
roundabout
routine
rovers
runway
rusedski
russell
sadly
safin
sake
scared
sci
sciences
scrap
sells
shame
shooter
shots
sidoli
sims
situations
skulls
smoke
somewhat
sophos
spears
specially
speeches
spotless
spotted
springboks
stamford
stepping
stiff
strict
striking
strongest
submitted
substantially
suing
summary
superior
surveyed
survived
sustain
switzerland
tasks
tautou
taxpayer
tear
technological
teenagers
telekom
tense
terrestrial
thanked
themes
threshold
toll
tougher
tps
tracking
travellers
trek
trigger
tuition
tzekos
unified
uniform
uwb
victoria
victories
vocal
walking
weren
wind
xstrata
yapp
yelling
zurich
##00m
##69
##81
##82
##99
##acking
##ade
##aging
##ake
##alded
##alley
##alve
##ament
##aneously
##ara
##ared
##arre
##ave
##band
##bank
##bies
##bot
##car
##cer
##ces
##chy
##cled
##clude
##clusion
##cm
##cturer
##dated
##dation
##dgy
##door
##ead
##ectric
##ein
##enne
##eps
##eration
##eri
##erie
##ese
##fected
##ferring
##ffs
##fi
##fic
##fying
##geo
##gging
##ghan
##gies
##graphy
##grated
##ially
##iary
##ib
##iff
##iles
##ili
##ilities
##ility
##ills
##illy
##ired
##isers
##itar
##itch
##ivation
##iz
##lative
##lba
##lers
##lice
##lips
##lished
##lla
##lli
##lm
##loating
##logs
##lops
##lous
##lug
##lyde
##md
##minent
##mor
##motive
##mous
##mouth
##nant
##nate
##nian
##nk
##ntal
##oe
##oes
##og
##ola
##ological
##omo
##oning
##ota
##ounted
##ower
##parations
##pc
##pes
##pgs
##ph
##phone
##phones
##pied
##player
##ployed
##pressed
##ptical
##pts
##raft
##rame
##ranos
##raphic
##rapped
##ratic
##rce
##reaming
##ret
##rge
##ried
##rner
##rol
##rom
##rove
##rozen
##rray
##rson
##rta
##scher
##sp
##stic
##stream
##sumption
##tage
##tar
##tect
##tement
##test
##tons
##tude
##tus
##uay
##uests
##ulent
##une
##uous
##ush
##valuation
##vation
##vez
##vid
##view
##vil
##visional
##wear
##wide
##wned
##world
##worth
##yal
1973
1974
1980
1990
1991
27bn
3gsm
58
59
61
63
68
73
83
87
92
abba
acceptable
accompanied
acquire
addiction
adequately
adriano
affecting
affects
agents
agricultural
aguas
alastair
amnesty
ancram
andrea
anelka
animation
announcements
anonymous
anyway
applying
arrangements
asks
awaited
axed
a£15
a£20
a£800m
bangkok
barclays
baroness
batteries
bayern
bdo
beatles
begg
beliefs
bernabeu
biarritz
binding
birth
bound
bournemouth
brent
brief
burger
bust
buyer
buys
capture
carers
carolina
cartoon
catherine
cech
celebrate
cement
chaos
chemical
clarkson
classes
classics
classroom
closures
cluley
codes
coffee
collections
colours
command
commentators
commonly
comparison
compatriot
competitiveness
complain
concerts
condemned
confess
consensus
consideration
consultancy
contribute
counterparts
courses
covers
crowds
csa
cuban
damien
dams
declining
delegates
demonstrated
denis
depending
determine
developer
diana
dirty
disappear
dividend
dossier
dozen
duet
duran
eager
eased
eduvision
eligible
elton
enemy
engaging
except
excessive
exists
expanding
explore
eyed
fagin
fahrenheit
farm
feud
filmed
filming
fiorina
flash
flaws
forcing
fosters
franchise
freed
fuelled
gallery
gamer
garcia
gerard
gibbons
gorges
grabbed
graeme
greeted
greg
grip
hailed
halifax
handing
healey
hearts
hike
hoffman
hogan
homeland
honest
houses
hub
hugh
humans
identification
immense
inclusion
incredibles
indefinitely
injection
install
instant
intent
inter
internationals
invisible
irb
jam
journal
jr
juan
kaplan
katerina
kenyan
killer
knife
kok
lanzone
leaflet
leaked
lenders
lennon
licensed
licensing
listings
loop
lottery
lows
luck
lufthansa
mann
measured
meets
mel
menu
merge
methods
michalak
midnight
milanesi
miles
mine
mittal
modem
monopoly
monsanto
moscow
movements
muse
nec
negotiate
negroponte
neill
nelly
nostalgia
obligations
obsessed
occurred
offline
offshore
ok
opener
oracle
overlooked
pain
painting
palmer
parks
permission
personality
plants
politician
portrayal
postal
powered
practical
preferred
presents
printed
priorities
privatisation
proceedings
produces
programming
prosecutor
ps2
publisher
publishing
punished
purposes
radical
raids
rail
reaches
refusing
registration
rejects
relatives
releasing
remembered
removal
repayments
repeat
replaces
requirement
resign
reunited
reveals
rewards
reynolds
ronan
rubber
rushed
ryan
sad
safeguards
samuel
saulnier
saves
scan
scare
scores
sealed
seasons
semitic
shall
sharers
sheer
shelves
shortlists
sick
sidelines
sight
sitcom
skin
skype
slates
sleep
slip
slump
sms
snap
soft
solo
soviet
spare
spector
spectrum
spotlight
spurlock
squabbling
stable
strange
strategist
strictly
succeeded
suits
supports
surged
surround
susan
swapped
sweeney
tackled
tank
taste
teach
teaching
technique
teenager
terrible
tevez
textile
thierry
thousand
thus
tiger
tolerance
tomorrow
transition
translated
triggered
trilogy
turnaround
turnout
twelve
unauthorised
undisclosed
universe
unnamed
unsolicited
unveils
updates
valuable
verge
veto
violent
virtually
visits
vladimir
walker
wasp
willis
withdrew
workplace
worsley
yorkshire
##!
##"
###
##$
##%
##&
##'
##(
##)
##*
##+
##,
##-
##.
##/
##:
##;
##=
##?
##[
##]
##`
##£
